#include "sine_model_quantized.h"

alignas(8) const unsigned char sine_model_quantized_tflite[] = {
  0x08, 0x00, 0x00, 0x00, 0x54, 0x46, 0x4c, 0x33, 0x32, 0xfa, 0xff, 0xff,
  0x03, 0x00, 0x00, 0x00, 0xc8, 0x09, 0x00, 0x00, 0xb8, 0x05, 0x00, 0x00,
  0xa0, 0x05, 0x00, 0x00, 0x04, 0x00, 0x00, 0x00, 0x0b, 0x00, 0x00, 0x00,
  0x90, 0x05, 0x00, 0x00, 0x88, 0x05, 0x00, 0x00, 0x38, 0x05, 0x00, 0x00,
  0xe0, 0x04, 0x00, 0x00, 0xcc, 0x04, 0x00, 0x00, 0x7c, 0x04, 0x00, 0x00,
  0x6c, 0x00, 0x00, 0x00, 0x1c, 0x00, 0x00, 0x00, 0x14, 0x00, 0x00, 0x00,
  0x0c, 0x00, 0x00, 0x00, 0x04, 0x00, 0x00, 0x00, 0xa0, 0xf6, 0xff, 0xff,
  0xa4, 0xf6, 0xff, 0xff, 0xa8, 0xf6, 0xff, 0xff, 0xfe, 0xfa, 0xff, 0xff,
  0x04, 0x00, 0x00, 0x00, 0x40, 0x00, 0x00, 0x00, 0x8f, 0x8a, 0x19, 0x3f,
  0x86, 0x18, 0xbb, 0xbe, 0x50, 0xfd, 0xe1, 0xbe, 0xa8, 0x18, 0x72, 0xbe,
  0x9e, 0x7f, 0xec, 0xbe, 0x60, 0x68, 0x96, 0x3d, 0xb7, 0x5c, 0x8b, 0xbe,
  0xca, 0x9f, 0x8e, 0xbf, 0xdd, 0x4e, 0x72, 0xbd, 0x31, 0xbf, 0xe1, 0x3e,
  0x1c, 0x4e, 0x35, 0x3f, 0x17, 0x32, 0x3e, 0x3f, 0xb7, 0xbf, 0x73, 0x3e,
  0xb6, 0x55, 0x9a, 0xbe, 0x49, 0xf5, 0xb0, 0x3e, 0x1d, 0x38, 0xc4, 0x3f,
  0x4a, 0xfb, 0xff, 0xff, 0x04, 0x00, 0x00, 0x00, 0x00, 0x04, 0x00, 0x00,
  0xb4, 0x5c, 0xab, 0xbe, 0xd0, 0x41, 0xc9, 0xbc, 0x78, 0x72, 0xb1, 0x3e,
  0xf0, 0xcb, 0x08, 0xbe, 0x31, 0x5c, 0x9b, 0xbe, 0x8d, 0x1d, 0x87, 0x3e,
  0x2f, 0x58, 0xad, 0xbe, 0x7a, 0x21, 0x8f, 0xbe, 0x5b, 0x44, 0x81, 0x3e,
  0xfa, 0x11, 0x5c, 0xbf, 0xdc, 0x67, 0xa1, 0x3d, 0xb6, 0xf8, 0x0a, 0xbf,
  0xde, 0x52, 0x87, 0xbe, 0x5f, 0x63, 0x95, 0x3e, 0xd6, 0x71, 0xae, 0x3c,
  0x0b, 0x91, 0xb0, 0x3e, 0xfc, 0x1a, 0xd4, 0x3d, 0xc6, 0x30, 0x5d, 0x3e,
  0xd9, 0x9f, 0x42, 0x3e, 0x3a, 0x82, 0x3f, 0xbe, 0x96, 0x49, 0x81, 0xbd,
  0xbb, 0xb1, 0xa2, 0x3e, 0xf0, 0xeb, 0xaf, 0x3c, 0x34, 0x2c, 0xf2, 0xbe,
  0x08, 0xb5, 0x60, 0xbe, 0x15, 0x73, 0x9b, 0x3e, 0x77, 0xfd, 0xb3, 0x3e,
  0x9a, 0x6a, 0x83, 0xbd, 0xe6, 0x74, 0x79, 0x3e, 0x8e, 0x08, 0x82, 0xbe,
  0xdc, 0x31, 0x8e, 0x3e, 0xda, 0x7b, 0x5d, 0x3e, 0xf4, 0x77, 0x32, 0xbe,
  0x2f, 0xaa, 0xc4, 0xbe, 0x2e, 0x35, 0x26, 0x3e, 0x1e, 0x85, 0x39, 0x3b,
  0xb1, 0xcb, 0x48, 0xbe, 0x98, 0xc1, 0x3c, 0xbc, 0x6c, 0xa1, 0xc3, 0xbe,
  0x00, 0x6d, 0xe4, 0xba, 0xec, 0x34, 0x8a, 0xbd, 0x93, 0x3e, 0x18, 0x3e,
  0xef, 0x37, 0x56, 0x3e, 0xf4, 0x97, 0x6a, 0x3e, 0xfb, 0xe9, 0xc6, 0x3e,
  0xed, 0xc5, 0x94, 0x3e, 0x13, 0x85, 0x99, 0x3e, 0x02, 0xe0, 0x8d, 0xbe,
  0x1a, 0x2f, 0x04, 0x3e, 0x36, 0x80, 0x39, 0x3e, 0xd6, 0x09, 0x15, 0x3e,
  0x08, 0xa9, 0xc4, 0xbe, 0x48, 0xd3, 0x54, 0xbd, 0x87, 0xb0, 0xa4, 0x3e,
  0x73, 0xef, 0x9d, 0x3e, 0x33, 0x97, 0xd4, 0xbe, 0xa2, 0x5d, 0x72, 0x3e,
  0x8a, 0x8a, 0x84, 0xbe, 0xd0, 0x7f, 0x95, 0xbe, 0xfc, 0x8d, 0xa8, 0xbd,
  0xb4, 0xe8, 0xee, 0x3d, 0x40, 0xa7, 0x24, 0x3c, 0x20, 0xe9, 0xd7, 0xbe,
  0xc8, 0xb5, 0xf7, 0xbd, 0xa0, 0x6f, 0xd6, 0xbd, 0xea, 0xba, 0x7c, 0x3e,
  0xeb, 0x3a, 0x2d, 0xbe, 0x03, 0x3f, 0xdb, 0xbd, 0xe4, 0xd3, 0xa6, 0xbe,
  0xd0, 0xe3, 0x9d, 0x3e, 0x3e, 0x04, 0x1d, 0x3e, 0x00, 0x52, 0x8f, 0x3e,
  0x5a, 0x4c, 0x32, 0xbe, 0x71, 0xf6, 0xa8, 0xbe, 0xc8, 0x92, 0x10, 0x3e,
  0x46, 0x02, 0x27, 0x3e, 0xa7, 0xeb, 0xa1, 0x3e, 0x70, 0x67, 0xeb, 0x3c,
  0x18, 0x3d, 0xd0, 0x3e, 0x98, 0x76, 0xbb, 0xbe, 0x8a, 0xe2, 0xd0, 0xbe,
  0x63, 0x5e, 0xd3, 0x3e, 0x05, 0x2d, 0x79, 0xbe, 0x39, 0x4e, 0xd1, 0xbe,
  0xe0, 0x31, 0x7f, 0x3c, 0x90, 0xfe, 0x2b, 0x3d, 0x8d, 0x81, 0xdc, 0xbe,
  0x45, 0xc4, 0x53, 0xbe, 0xfe, 0x16, 0x87, 0xbe, 0x17, 0xc5, 0xca, 0x3e,
  0x1d, 0x10, 0xb7, 0x3e, 0xc2, 0x13, 0xca, 0xbe, 0xaf, 0xa1, 0xd0, 0x3e,
  0x9c, 0xaf, 0xdd, 0x3d, 0x70, 0x68, 0x99, 0xbe, 0x28, 0xd0, 0x71, 0xbd,
  0x80, 0xd0, 0x9c, 0xbe, 0x29, 0x9e, 0x9c, 0x3e, 0xed, 0x87, 0xc3, 0x3e,
  0x62, 0xbf, 0x15, 0xbf, 0x8f, 0x69, 0x8a, 0xbe, 0x31, 0x2d, 0x80, 0x3d,
  0x06, 0xc6, 0x53, 0x3e, 0x28, 0x55, 0x07, 0xbe, 0x7e, 0x77, 0x52, 0x3e,
  0x27, 0xdb, 0x55, 0x3e, 0x3e, 0x7e, 0xce, 0x3e, 0x8a, 0xb4, 0xdf, 0xbe,
  0xfb, 0x8d, 0xbe, 0x3e, 0xb5, 0xb2, 0xd1, 0xbe, 0x01, 0x15, 0xd8, 0x3e,
  0xc0, 0xd2, 0x6b, 0xbd, 0x40, 0xd3, 0x56, 0xbc, 0xae, 0xfb, 0x21, 0xbe,
  0xf2, 0x67, 0x9c, 0xbf, 0xa0, 0xf9, 0x8d, 0xbd, 0xec, 0x8a, 0xb7, 0xbe,
  0x42, 0xec, 0x38, 0x3e, 0x28, 0xb4, 0x68, 0xbe, 0x36, 0xd3, 0x11, 0x3f,
  0x73, 0xe4, 0xce, 0x3e, 0x71, 0x9b, 0x68, 0x3f, 0xe2, 0x61, 0x06, 0xbf,
  0xa4, 0x15, 0xef, 0xbc, 0x1c, 0x8f, 0xd3, 0xbd, 0xbe, 0x80, 0x5d, 0x3e,
  0xb7, 0x51, 0x82, 0x3f, 0x62, 0x1e, 0x07, 0xbe, 0xf0, 0x47, 0xbf, 0xbd,
  0x10, 0xbe, 0x54, 0xbe, 0x4f, 0x55, 0xac, 0x3e, 0x27, 0x4d, 0xdc, 0x3d,
  0x6c, 0xcb, 0xb7, 0xbe, 0x0f, 0xc9, 0xa9, 0xbd, 0x84, 0xd1, 0x99, 0x3d,
  0xe9, 0x31, 0x8a, 0x3e, 0x5e, 0x05, 0x59, 0x3e, 0x3c, 0xff, 0xd0, 0xbd,
  0xc8, 0x3e, 0x0c, 0xbe, 0xd2, 0x91, 0x09, 0xbe, 0x1a, 0x21, 0x36, 0xbe,
  0x88, 0x1c, 0x4d, 0x3d, 0x08, 0xb5, 0x24, 0xbc, 0x9f, 0x09, 0xb8, 0x3e,
  0xda, 0x61, 0x1e, 0x3e, 0x59, 0x76, 0xb2, 0x3e, 0xbc, 0x7f, 0xa3, 0x3d,
  0x78, 0xf1, 0x05, 0x3f, 0x66, 0xce, 0x56, 0xbe, 0x2d, 0x59, 0x2a, 0x3e,
  0xe0, 0xd8, 0xa4, 0xbe, 0xe6, 0xe5, 0x88, 0x3e, 0x31, 0x06, 0xb4, 0x3e,
  0x6b, 0xeb, 0xac, 0x3e, 0xa5, 0x1e, 0xcc, 0xbc, 0x1b, 0xb6, 0x88, 0xbd,
  0x92, 0x3f, 0x6e, 0x3e, 0x00, 0xe2, 0xd1, 0x3b, 0x69, 0xc4, 0xce, 0xbe,
  0x66, 0xb5, 0x2a, 0xbe, 0x19, 0xcc, 0xba, 0x3e, 0xae, 0x6d, 0x0a, 0x3e,
  0x18, 0x7c, 0xd4, 0x3e, 0xa3, 0xa2, 0x20, 0x3f, 0xdf, 0x98, 0x41, 0xbd,
  0xcb, 0xab, 0x0f, 0xbf, 0x05, 0x4d, 0xd4, 0x3e, 0xff, 0xb1, 0xf2, 0x3d,
  0xe2, 0x39, 0x00, 0xbe, 0x82, 0xfb, 0x80, 0x3e, 0x1c, 0xff, 0x04, 0x3d,
  0x42, 0xc5, 0xcd, 0x3e, 0xb1, 0x0d, 0xca, 0x3e, 0x5e, 0xb0, 0x13, 0xbe,
  0xf1, 0x03, 0x45, 0xbf, 0xbd, 0x1d, 0xdc, 0x3e, 0x80, 0x25, 0x5d, 0xbd,
  0x14, 0xeb, 0xbf, 0xbd, 0xf4, 0x20, 0x87, 0xbd, 0xcb, 0x73, 0x3a, 0x3f,
  0x75, 0x73, 0x93, 0x3d, 0x29, 0x23, 0x94, 0x3e, 0xc0, 0x5c, 0x3e, 0x3d,
  0x3f, 0x8d, 0xe0, 0x3d, 0xcb, 0xfa, 0xc2, 0x3e, 0x87, 0x1b, 0xc7, 0x3e,
  0xb0, 0x11, 0x23, 0xbe, 0x67, 0x44, 0x0a, 0xbd, 0x2d, 0x41, 0xc1, 0xbe,
  0xdf, 0x32, 0xd5, 0x3e, 0xec, 0xbc, 0x12, 0xbf, 0x3e, 0x4d, 0x12, 0xbe,
  0x7d, 0x10, 0xd0, 0x3e, 0x2e, 0xf8, 0x3c, 0x3e, 0x4d, 0xfe, 0x8b, 0xbe,
  0x1c, 0x2a, 0x16, 0xbe, 0x95, 0x4f, 0x68, 0x3d, 0xb5, 0xea, 0xae, 0x3e,
  0xd4, 0x8b, 0x80, 0x3d, 0x38, 0x47, 0xc6, 0xbe, 0xf5, 0xb3, 0xb8, 0xbe,
  0x70, 0x72, 0x9e, 0xbe, 0xa7, 0xdc, 0xb1, 0xbe, 0x8a, 0x5b, 0x1e, 0xbe,
  0x5e, 0x84, 0x40, 0x3e, 0x1f, 0x7c, 0xd1, 0xbe, 0xbf, 0x85, 0x88, 0xbe,
  0x3c, 0x23, 0x19, 0xbe, 0x6c, 0x78, 0x9f, 0x3d, 0xda, 0x15, 0x6c, 0x3e,
  0xff, 0x75, 0x64, 0xbe, 0x2b, 0xf6, 0xc0, 0x3e, 0x48, 0x12, 0x2d, 0xbd,
  0xa0, 0xf5, 0x4a, 0xbd, 0x83, 0xa3, 0xcc, 0x3e, 0x3a, 0x01, 0xd6, 0xbe,
  0x84, 0x88, 0x7a, 0xbe, 0x82, 0xa4, 0x65, 0xbe, 0x6c, 0x80, 0x9f, 0xbe,
  0x54, 0x5e, 0xa6, 0xbe, 0x03, 0xd0, 0xc0, 0x3e, 0xa0, 0xfa, 0x21, 0xbc,
  0x04, 0xd2, 0x50, 0xbe, 0x35, 0xeb, 0xcf, 0x3e, 0x25, 0x27, 0xbc, 0x3e,
  0xd8, 0x36, 0x42, 0xbd, 0xf2, 0x22, 0xc3, 0x3e, 0x3c, 0x99, 0xd0, 0xbb,
  0xfe, 0xfc, 0x2b, 0x3e, 0x4c, 0x33, 0x15, 0xbd, 0x27, 0xa6, 0xb2, 0xbe,
  0x49, 0x11, 0xfd, 0x3e, 0x7a, 0xe4, 0x9a, 0xbe, 0x39, 0x86, 0x50, 0x3d,
  0x71, 0xeb, 0x29, 0x3d, 0x4c, 0x51, 0xbb, 0xbe, 0xba, 0x71, 0x1f, 0x3e,
  0x81, 0x85, 0xc8, 0x3e, 0x89, 0x3d, 0x5c, 0xbf, 0x7d, 0x3b, 0xbb, 0xbe,
  0xd0, 0x0a, 0xbf, 0x3c, 0xe0, 0x46, 0xf1, 0xbd, 0xd2, 0xb4, 0x37, 0xbe,
  0x02, 0x02, 0xa3, 0xbf, 0x76, 0xda, 0x02, 0xbe, 0x38, 0x9a, 0x04, 0x3f,
  0xd8, 0x90, 0x33, 0xbd, 0x31, 0xa7, 0x72, 0xbe, 0xcc, 0x85, 0x47, 0xbe,
  0xdb, 0xe2, 0xc0, 0xbe, 0xb4, 0xf1, 0x4c, 0x3e, 0xd7, 0x6f, 0xb4, 0xbe,
  0x26, 0x03, 0x4d, 0x3e, 0x00, 0xf0, 0xa7, 0x3b, 0x2f, 0x1d, 0x75, 0x3f,
  0x50, 0x31, 0x48, 0xbd, 0x56, 0xff, 0xff, 0xff, 0x04, 0x00, 0x00, 0x00,
  0x40, 0x00, 0x00, 0x00, 0x98, 0x7a, 0xa6, 0xbe, 0x56, 0x9e, 0x73, 0xbe,
  0x31, 0x08, 0xea, 0x3e, 0xca, 0xd2, 0x4b, 0x3e, 0x1d, 0x10, 0xea, 0x3e,
  0xe5, 0x34, 0x8f, 0x3e, 0x00, 0x1a, 0x96, 0xbe, 0x23, 0xbf, 0xda, 0x3e,
  0xa8, 0x32, 0x94, 0xbd, 0x00, 0xbd, 0x78, 0x3e, 0xf1, 0x6b, 0xad, 0x3e,
  0x37, 0xf4, 0xd4, 0x3e, 0xd4, 0x5f, 0x7e, 0xbe, 0xf6, 0x8d, 0x0e, 0xbf,
  0x3f, 0xe0, 0x8a, 0xbd, 0xae, 0x3f, 0x03, 0xbf, 0xa2, 0xff, 0xff, 0xff,
  0x04, 0x00, 0x00, 0x00, 0x04, 0x00, 0x00, 0x00, 0xc1, 0x09, 0xa3, 0xbe,
  0xb2, 0xff, 0xff, 0xff, 0x04, 0x00, 0x00, 0x00, 0x40, 0x00, 0x00, 0x00,
  0xf1, 0x6d, 0x1f, 0xbd, 0x1d, 0x64, 0x7a, 0x3e, 0x90, 0x97, 0x67, 0x3e,
  0x00, 0x00, 0x00, 0x00, 0xc4, 0xee, 0x86, 0x3e, 0x00, 0x00, 0x00, 0x00,
  0x06, 0x20, 0x9b, 0x3e, 0xf1, 0x7d, 0x24, 0x3f, 0x25, 0x28, 0xaa, 0xbc,
  0x30, 0xa9, 0xda, 0xbe, 0x74, 0x0c, 0xfd, 0xbe, 0xbc, 0xe1, 0xe2, 0xbe,
  0x8c, 0x66, 0x14, 0xbd, 0x00, 0x00, 0x00, 0x00, 0x62, 0x67, 0xde, 0xbe,
  0xcc, 0xf1, 0x4e, 0x3f, 0x00, 0x00, 0x06, 0x00, 0x08, 0x00, 0x04, 0x00,
  0x06, 0x00, 0x00, 0x00, 0x04, 0x00, 0x00, 0x00, 0x40, 0x00, 0x00, 0x00,
  0x00, 0x00, 0x00, 0x00, 0x00, 0x00, 0x00, 0x00, 0xe0, 0x0c, 0x5a, 0xbb,
  0x5b, 0x01, 0x03, 0xbf, 0x4f, 0x1d, 0x35, 0xbe, 0xa2, 0xa5, 0x07, 0x3f,
  0x00, 0x00, 0x00, 0x00, 0xa6, 0x68, 0xf5, 0xbe, 0x00, 0x00, 0x00, 0x00,
  0x5b, 0x75, 0xce, 0xbe, 0x91, 0xe0, 0xb9, 0x3e, 0x8e, 0x1a, 0x71, 0xbe,
  0x00, 0x00, 0x00, 0x00, 0x00, 0x00, 0x00, 0x00, 0xa1, 0x84, 0x6b, 0x3f,
  0x00, 0x00, 0x00, 0x00, 0x00, 0xfc, 0xff, 0xff, 0x04, 0xfc, 0xff, 0xff,
  0x0f, 0x00, 0x00, 0x00, 0x4d, 0x4c, 0x49, 0x52, 0x20, 0x43, 0x6f, 0x6e,
  0x76, 0x65, 0x72, 0x74, 0x65, 0x64, 0x2e, 0x00, 0x01, 0x00, 0x00, 0x00,
  0x14, 0x00, 0x00, 0x00, 0x00, 0x00, 0x0e, 0x00, 0x18, 0x00, 0x04, 0x00,
  0x08, 0x00, 0x0c, 0x00, 0x10, 0x00, 0x14, 0x00, 0x0e, 0x00, 0x00, 0x00,
  0x00, 0x01, 0x00, 0x00, 0xf4, 0x00, 0x00, 0x00, 0xe8, 0x00, 0x00, 0x00,
  0x14, 0x00, 0x00, 0x00, 0x04, 0x00, 0x00, 0x00, 0x04, 0x00, 0x00, 0x00,
  0x6d, 0x61, 0x69, 0x6e, 0x00, 0x00, 0x00, 0x00, 0x03, 0x00, 0x00, 0x00,
  0x90, 0x00, 0x00, 0x00, 0x48, 0x00, 0x00, 0x00, 0x04, 0x00, 0x00, 0x00,
  0xce, 0xff, 0xff, 0xff, 0x00, 0x00, 0x00, 0x08, 0x18, 0x00, 0x00, 0x00,
  0x0c, 0x00, 0x00, 0x00, 0x04, 0x00, 0x00, 0x00, 0x7c, 0xfc, 0xff, 0xff,
  0x01, 0x00, 0x00, 0x00, 0x09, 0x00, 0x00, 0x00, 0x03, 0x00, 0x00, 0x00,
  0x08, 0x00, 0x00, 0x00, 0x06, 0x00, 0x00, 0x00, 0x03, 0x00, 0x00, 0x00,
  0x00, 0x00, 0x0e, 0x00, 0x14, 0x00, 0x00, 0x00, 0x08, 0x00, 0x0c, 0x00,
  0x07, 0x00, 0x10, 0x00, 0x0e, 0x00, 0x00, 0x00, 0x00, 0x00, 0x00, 0x08,
  0x1c, 0x00, 0x00, 0x00, 0x10, 0x00, 0x00, 0x00, 0x04, 0x00, 0x00, 0x00,
  0xba, 0xff, 0xff, 0xff, 0x00, 0x00, 0x00, 0x01, 0x01, 0x00, 0x00, 0x00,
  0x08, 0x00, 0x00, 0x00, 0x03, 0x00, 0x00, 0x00, 0x07, 0x00, 0x00, 0x00,
  0x05, 0x00, 0x00, 0x00, 0x02, 0x00, 0x00, 0x00, 0x00, 0x00, 0x0e, 0x00,
  0x16, 0x00, 0x00, 0x00, 0x08, 0x00, 0x0c, 0x00, 0x07, 0x00, 0x10, 0x00,
  0x0e, 0x00, 0x00, 0x00, 0x00, 0x00, 0x00, 0x08, 0x24, 0x00, 0x00, 0x00,
  0x18, 0x00, 0x00, 0x00, 0x0c, 0x00, 0x00, 0x00, 0x00, 0x00, 0x06, 0x00,
  0x08, 0x00, 0x07, 0x00, 0x06, 0x00, 0x00, 0x00, 0x00, 0x00, 0x00, 0x01,
  0x01, 0x00, 0x00, 0x00, 0x07, 0x00, 0x00, 0x00, 0x03, 0x00, 0x00, 0x00,
  0x00, 0x00, 0x00, 0x00, 0x04, 0x00, 0x00, 0x00, 0x01, 0x00, 0x00, 0x00,
  0x01, 0x00, 0x00, 0x00, 0x09, 0x00, 0x00, 0x00, 0x01, 0x00, 0x00, 0x00,
  0x00, 0x00, 0x00, 0x00, 0x0a, 0x00, 0x00, 0x00, 0xb0, 0x02, 0x00, 0x00,
  0x4c, 0x02, 0x00, 0x00, 0xf8, 0x01, 0x00, 0x00, 0xa4, 0x01, 0x00, 0x00,
  0x5c, 0x01, 0x00, 0x00, 0x14, 0x01, 0x00, 0x00, 0xcc, 0x00, 0x00, 0x00,
  0x84, 0x00, 0x00, 0x00, 0x3c, 0x00, 0x00, 0x00, 0x04, 0x00, 0x00, 0x00,
  0x86, 0xfd, 0xff, 0xff, 0x24, 0x00, 0x00, 0x00, 0x0a, 0x00, 0x00, 0x00,
  0x0c, 0x00, 0x00, 0x00, 0x04, 0x00, 0x00, 0x00, 0x78, 0xfd, 0xff, 0xff,
  0x08, 0x00, 0x00, 0x00, 0x49, 0x64, 0x65, 0x6e, 0x74, 0x69, 0x74, 0x79,
  0x00, 0x00, 0x00, 0x00, 0x02, 0x00, 0x00, 0x00, 0x01, 0x00, 0x00, 0x00,
  0x01, 0x00, 0x00, 0x00, 0xba, 0xfd, 0xff, 0xff, 0x34, 0x00, 0x00, 0x00,
  0x09, 0x00, 0x00, 0x00, 0x0c, 0x00, 0x00, 0x00, 0x04, 0x00, 0x00, 0x00,
  0xac, 0xfd, 0xff, 0xff, 0x19, 0x00, 0x00, 0x00, 0x73, 0x65, 0x71, 0x75,
  0x65, 0x6e, 0x74, 0x69, 0x61, 0x6c, 0x5f, 0x31, 0x2f, 0x64, 0x65, 0x6e,
  0x73, 0x65, 0x5f, 0x33, 0x2f, 0x52, 0x65, 0x6c, 0x75, 0x00, 0x00, 0x00,
  0x02, 0x00, 0x00, 0x00, 0x01, 0x00, 0x00, 0x00, 0x10, 0x00, 0x00, 0x00,
  0xfe, 0xfd, 0xff, 0xff, 0x34, 0x00, 0x00, 0x00, 0x08, 0x00, 0x00, 0x00,
  0x0c, 0x00, 0x00, 0x00, 0x04, 0x00, 0x00, 0x00, 0xf0, 0xfd, 0xff, 0xff,
  0x19, 0x00, 0x00, 0x00, 0x73, 0x65, 0x71, 0x75, 0x65, 0x6e, 0x74, 0x69,
  0x61, 0x6c, 0x5f, 0x31, 0x2f, 0x64, 0x65, 0x6e, 0x73, 0x65, 0x5f, 0x32,
  0x2f, 0x52, 0x65, 0x6c, 0x75, 0x00, 0x00, 0x00, 0x02, 0x00, 0x00, 0x00,
  0x01, 0x00, 0x00, 0x00, 0x10, 0x00, 0x00, 0x00, 0x42, 0xfe, 0xff, 0xff,
  0x34, 0x00, 0x00, 0x00, 0x07, 0x00, 0x00, 0x00, 0x0c, 0x00, 0x00, 0x00,
  0x04, 0x00, 0x00, 0x00, 0x34, 0xfe, 0xff, 0xff, 0x1b, 0x00, 0x00, 0x00,
  0x73, 0x65, 0x71, 0x75, 0x65, 0x6e, 0x74, 0x69, 0x61, 0x6c, 0x5f, 0x31,
  0x2f, 0x64, 0x65, 0x6e, 0x73, 0x65, 0x5f, 0x34, 0x2f, 0x4d, 0x61, 0x74,
  0x4d, 0x75, 0x6c, 0x00, 0x02, 0x00, 0x00, 0x00, 0x01, 0x00, 0x00, 0x00,
  0x10, 0x00, 0x00, 0x00, 0x86, 0xfe, 0xff, 0xff, 0x34, 0x00, 0x00, 0x00,
  0x06, 0x00, 0x00, 0x00, 0x0c, 0x00, 0x00, 0x00, 0x04, 0x00, 0x00, 0x00,
  0x78, 0xfe, 0xff, 0xff, 0x1b, 0x00, 0x00, 0x00, 0x73, 0x65, 0x71, 0x75,
  0x65, 0x6e, 0x74, 0x69, 0x61, 0x6c, 0x5f, 0x31, 0x2f, 0x64, 0x65, 0x6e,
  0x73, 0x65, 0x5f, 0x33, 0x2f, 0x4d, 0x61, 0x74, 0x4d, 0x75, 0x6c, 0x00,
  0x02, 0x00, 0x00, 0x00, 0x10, 0x00, 0x00, 0x00, 0x10, 0x00, 0x00, 0x00,
  0xca, 0xfe, 0xff, 0xff, 0x34, 0x00, 0x00, 0x00, 0x05, 0x00, 0x00, 0x00,
  0x0c, 0x00, 0x00, 0x00, 0x04, 0x00, 0x00, 0x00, 0xbc, 0xfe, 0xff, 0xff,
  0x1b, 0x00, 0x00, 0x00, 0x73, 0x65, 0x71, 0x75, 0x65, 0x6e, 0x74, 0x69,
  0x61, 0x6c, 0x5f, 0x31, 0x2f, 0x64, 0x65, 0x6e, 0x73, 0x65, 0x5f, 0x32,
  0x2f, 0x4d, 0x61, 0x74, 0x4d, 0x75, 0x6c, 0x00, 0x02, 0x00, 0x00, 0x00,
  0x10, 0x00, 0x00, 0x00, 0x01, 0x00, 0x00, 0x00, 0x0e, 0xff, 0xff, 0xff,
  0x44, 0x00, 0x00, 0x00, 0x04, 0x00, 0x00, 0x00, 0x0c, 0x00, 0x00, 0x00,
  0x04, 0x00, 0x00, 0x00, 0x00, 0xff, 0xff, 0xff, 0x2b, 0x00, 0x00, 0x00,
  0x73, 0x65, 0x71, 0x75, 0x65, 0x6e, 0x74, 0x69, 0x61, 0x6c, 0x5f, 0x31,
  0x2f, 0x64, 0x65, 0x6e, 0x73, 0x65, 0x5f, 0x34, 0x2f, 0x42, 0x69, 0x61,
  0x73, 0x41, 0x64, 0x64, 0x2f, 0x52, 0x65, 0x61, 0x64, 0x56, 0x61, 0x72,
  0x69, 0x61, 0x62, 0x6c, 0x65, 0x4f, 0x70, 0x00, 0x01, 0x00, 0x00, 0x00,
  0x01, 0x00, 0x00, 0x00, 0x5e, 0xff, 0xff, 0xff, 0x44, 0x00, 0x00, 0x00,
  0x03, 0x00, 0x00, 0x00, 0x0c, 0x00, 0x00, 0x00, 0x04, 0x00, 0x00, 0x00,
  0x50, 0xff, 0xff, 0xff, 0x2b, 0x00, 0x00, 0x00, 0x73, 0x65, 0x71, 0x75,
  0x65, 0x6e, 0x74, 0x69, 0x61, 0x6c, 0x5f, 0x31, 0x2f, 0x64, 0x65, 0x6e,
  0x73, 0x65, 0x5f, 0x33, 0x2f, 0x42, 0x69, 0x61, 0x73, 0x41, 0x64, 0x64,
  0x2f, 0x52, 0x65, 0x61, 0x64, 0x56, 0x61, 0x72, 0x69, 0x61, 0x62, 0x6c,
  0x65, 0x4f, 0x70, 0x00, 0x01, 0x00, 0x00, 0x00, 0x10, 0x00, 0x00, 0x00,
  0xae, 0xff, 0xff, 0xff, 0x44, 0x00, 0x00, 0x00, 0x02, 0x00, 0x00, 0x00,
  0x0c, 0x00, 0x00, 0x00, 0x04, 0x00, 0x00, 0x00, 0xa0, 0xff, 0xff, 0xff,
  0x2b, 0x00, 0x00, 0x00, 0x73, 0x65, 0x71, 0x75, 0x65, 0x6e, 0x74, 0x69,
  0x61, 0x6c, 0x5f, 0x31, 0x2f, 0x64, 0x65, 0x6e, 0x73, 0x65, 0x5f, 0x32,
  0x2f, 0x42, 0x69, 0x61, 0x73, 0x41, 0x64, 0x64, 0x2f, 0x52, 0x65, 0x61,
  0x64, 0x56, 0x61, 0x72, 0x69, 0x61, 0x62, 0x6c, 0x65, 0x4f, 0x70, 0x00,
  0x01, 0x00, 0x00, 0x00, 0x10, 0x00, 0x00, 0x00, 0x00, 0x00, 0x0e, 0x00,
  0x14, 0x00, 0x04, 0x00, 0x00, 0x00, 0x08, 0x00, 0x0c, 0x00, 0x10, 0x00,
  0x0e, 0x00, 0x00, 0x00, 0x2c, 0x00, 0x00, 0x00, 0x01, 0x00, 0x00, 0x00,
  0x10, 0x00, 0x00, 0x00, 0x08, 0x00, 0x00, 0x00, 0x04, 0x00, 0x04, 0x00,
  0x04, 0x00, 0x00, 0x00, 0x0d, 0x00, 0x00, 0x00, 0x64, 0x65, 0x6e, 0x73,
  0x65, 0x5f, 0x32, 0x5f, 0x69, 0x6e, 0x70, 0x75, 0x74, 0x00, 0x00, 0x00,
  0x02, 0x00, 0x00, 0x00, 0x01, 0x00, 0x00, 0x00, 0x01, 0x00, 0x00, 0x00,
  0x01, 0x00, 0x00, 0x00, 0x10, 0x00, 0x00, 0x00, 0x00, 0x00, 0x0a, 0x00,
  0x0c, 0x00, 0x07, 0x00, 0x00, 0x00, 0x08, 0x00, 0x0a, 0x00, 0x00, 0x00,
  0x00, 0x00, 0x00, 0x09, 0x03, 0x00, 0x00, 0x00
};
const unsigned int sine_model_quantized_tflite_len = 2552;
